#ifndef SINE_MODEL_H
#define SINE_MODEL_H


unsigned int sine_model_len = 2928;
unsigned char sine_model[] = {
 0x20, 0x00, 0x00, 0x00, 0x54, 0x46, 0x4c, 0x33, 0x00, 0x00, 0x00, 0x00,
  0x00, 0x00, 0x12, 0x00, 0x1c, 0x00, 0x04, 0x00, 0x08, 0x00, 0x0c, 0x00,
  0x10, 0x00, 0x14, 0x00, 0x00, 0x00, 0x18, 0x00, 0x12, 0x00, 0x00, 0x00,
  0x03, 0x00, 0x00, 0x00, 0x28, 0x0b, 0x00, 0x00, 0x68, 0x06, 0x00, 0x00,
  0x50, 0x06, 0x00, 0x00, 0x3c, 0x00, 0x00, 0x00, 0x04, 0x00, 0x00, 0x00,
  0x01, 0x00, 0x00, 0x00, 0x0c, 0x00, 0x00, 0x00, 0x08, 0x00, 0x0c, 0x00,
  0x04, 0x00, 0x08, 0x00, 0x08, 0x00, 0x00, 0x00, 0x08, 0x00, 0x00, 0x00,
  0x0b, 0x00, 0x00, 0x00, 0x13, 0x00, 0x00, 0x00, 0x6d, 0x69, 0x6e, 0x5f,
  0x72, 0x75, 0x6e, 0x74, 0x69, 0x6d, 0x65, 0x5f, 0x76, 0x65, 0x72, 0x73,
  0x69, 0x6f, 0x6e, 0x00, 0x0c, 0x00, 0x00, 0x00, 0x08, 0x06, 0x00, 0x00,
  0xf4, 0x05, 0x00, 0x00, 0x98, 0x05, 0x00, 0x00, 0x34, 0x05, 0x00, 0x00,
  0x20, 0x05, 0x00, 0x00, 0xcc, 0x04, 0x00, 0x00, 0xb8, 0x00, 0x00, 0x00,
  0x64, 0x00, 0x00, 0x00, 0x58, 0x00, 0x00, 0x00, 0x44, 0x00, 0x00, 0x00,
  0x30, 0x00, 0x00, 0x00, 0x04, 0x00, 0x00, 0x00, 0x96, 0xfa, 0xff, 0xff,
  0x04, 0x00, 0x00, 0x00, 0x10, 0x00, 0x00, 0x00, 0x31, 0x2e, 0x35, 0x2e,
  0x30, 0x00, 0x00, 0x00, 0x00, 0x00, 0x00, 0x00, 0x00, 0x00, 0x00, 0x00,
  0x00, 0x00, 0x00, 0x00, 0x00, 0x00, 0x00, 0x00, 0x00, 0x00, 0x00, 0x00,
  0xa4, 0xf5, 0xff, 0xff, 0x00, 0x00, 0x00, 0x00, 0x00, 0x00, 0x00, 0x00,
  0x00, 0x00, 0x00, 0x00, 0xb4, 0xf5, 0xff, 0xff, 0x00, 0x00, 0x00, 0x00,
  0x00, 0x00, 0x00, 0x00, 0x00, 0x00, 0x00, 0x00, 0xc4, 0xf5, 0xff, 0xff,
  0x00, 0x00, 0x00, 0x00, 0xe6, 0xfa, 0xff, 0xff, 0x04, 0x00, 0x00, 0x00,
  0x40, 0x00, 0x00, 0x00, 0x4d, 0xdf, 0xfd, 0xbe, 0x8b, 0x16, 0x76, 0xbf,
  0x38, 0xb8, 0xc4, 0xbe, 0x74, 0x1c, 0xf5, 0xbe, 0x4a, 0xb8, 0xd1, 0xbe,
  0x67, 0x64, 0xed, 0xbe, 0xc0, 0xca, 0x19, 0x3c, 0x98, 0x53, 0xea, 0x3e,
  0x8a, 0x73, 0x34, 0x3f, 0x51, 0x78, 0xfe, 0x3e, 0x50, 0x0d, 0x02, 0x3e,
  0x1f, 0xc9, 0x8e, 0x3f, 0x32, 0xee, 0x9d, 0x3f, 0x24, 0x4e, 0x27, 0x3f,
  0xe9, 0xde, 0x33, 0x40, 0x80, 0xa4, 0x93, 0xbd, 0x00, 0x00, 0x00, 0x00,
  0x36, 0xfb, 0xff, 0xff, 0x04, 0x00, 0x00, 0x00, 0x00, 0x04, 0x00, 0x00,
  0x7a, 0x18, 0x11, 0x3e, 0x10, 0x95, 0x69, 0xbc, 0x47, 0x41, 0xa1, 0x3e,
  0x2a, 0x81, 0xbb, 0x3e, 0x9e, 0x26, 0x0a, 0x3e, 0xce, 0xc6, 0x20, 0xbe,
  0xdc, 0x92, 0x9f, 0x3d, 0x62, 0x63, 0x9d, 0xbd, 0xc6, 0x49, 0x68, 0x3e,
  0xed, 0x57, 0xb8, 0x3e, 0x99, 0xe2, 0x66, 0x3e, 0x74, 0xf0, 0xba, 0xbd,
  0x92, 0x26, 0xd3, 0xbe, 0x78, 0x54, 0xdd, 0xbe, 0xc3, 0x1d, 0xb9, 0x3e,
  0xbc, 0x7d, 0x0c, 0xbe, 0xe2, 0xda, 0x09, 0x3e, 0x09, 0xa1, 0x70, 0x3d,
  0x92, 0x2d, 0x7e, 0x3e, 0xdc, 0x04, 0xee, 0xbe, 0x4c, 0x37, 0xc9, 0xbd,
  0x5c, 0x8c, 0xb9, 0xbd, 0x2d, 0xbe, 0x87, 0xbe, 0xa3, 0x07, 0xc2, 0xbe,
  0x07, 0x18, 0xd1, 0x3e, 0xa3, 0x49, 0xb2, 0x3e, 0x55, 0x0f, 0x80, 0xbf,
  0xa0, 0xa9, 0x2f, 0x3c, 0x40, 0x68, 0xdf, 0x3b, 0x75, 0x03, 0xa4, 0xbd,
  0x26, 0x6e, 0xa1, 0xbe, 0x92, 0x65, 0x2a, 0x3e, 0x04, 0x9c, 0xa5, 0x3d,
  0x15, 0x73, 0xbf, 0x3e, 0xde, 0xb8, 0x6b, 0xbe, 0xb4, 0xd0, 0xe9, 0xbd,
  0xde, 0xdf, 0x7a, 0x3e, 0x50, 0x8e, 0x19, 0x3d, 0xb0, 0xd9, 0xf8, 0x3c,
  0x80, 0xf1, 0x0f, 0xbb, 0xb2, 0x1d, 0x4a, 0x3e, 0x7c, 0xb3, 0xc2, 0x3d,
  0x88, 0x9d, 0x3a, 0xbd, 0x3a, 0xf0, 0xc5, 0xbe, 0xd2, 0xdf, 0x1c, 0xbe,
  0x00, 0xb1, 0x97, 0xbe, 0xdc, 0x69, 0xd5, 0xbe, 0xc0, 0x0f, 0xbd, 0xbc,
  0x30, 0xcb, 0xe7, 0xbd, 0xb5, 0xda, 0x1c, 0xbe, 0x24, 0x2e, 0xc2, 0xbe,
  0xb3, 0x06, 0x07, 0xbe, 0xeb, 0x67, 0x98, 0x3e, 0xfc, 0x6f, 0xb0, 0x3d,
  0x04, 0x3c, 0xaa, 0x3d, 0x30, 0x46, 0x81, 0xbd, 0x98, 0xb0, 0xaf, 0xbe,
  0x8b, 0xe5, 0xcb, 0x3e, 0x27, 0x14, 0x1c, 0x3e, 0xb2, 0xc6, 0x54, 0xbe,
  0x86, 0x3c, 0x70, 0x3e, 0x8b, 0x36, 0x97, 0x3e, 0x20, 0xc4, 0xc2, 0x3c,
  0x09, 0xa7, 0xb3, 0xbe, 0xd1, 0x19, 0xbf, 0x3e, 0xee, 0x99, 0x94, 0xbe,
  0xe5, 0x65, 0xcd, 0x3e, 0xfe, 0x06, 0xdc, 0x3e, 0xe6, 0x28, 0x9c, 0xbe,
  0x9b, 0x06, 0x8f, 0x3e, 0xbd, 0x73, 0xc8, 0xbe, 0x8e, 0x18, 0x60, 0xbe,
  0xd0, 0x4e, 0x1c, 0xbe, 0x70, 0x47, 0x31, 0xbe, 0xff, 0x04, 0x0d, 0x3e,
  0xd8, 0x17, 0xdc, 0xbe, 0xff, 0x8f, 0xd8, 0xbe, 0xe3, 0xf0, 0x1c, 0xbe,
  0x3b, 0xd1, 0xb6, 0xbe, 0x15, 0xdf, 0xd2, 0x3e, 0x44, 0x23, 0xaf, 0xbd,
  0x0a, 0xfd, 0x40, 0xbf, 0xea, 0x57, 0xdc, 0xbe, 0xf9, 0x15, 0xca, 0x3e,
  0xdd, 0x76, 0x64, 0xbe, 0xb4, 0x12, 0xef, 0x3d, 0x27, 0x6f, 0xc5, 0x3e,
  0x6a, 0x80, 0xd2, 0x3d, 0x92, 0x5e, 0x18, 0x3e, 0x5b, 0xa2, 0xa4, 0xbe,
  0xc8, 0x76, 0x5f, 0xbd, 0x09, 0x31, 0xd6, 0xbe, 0x33, 0xef, 0x5f, 0xbe,
  0x32, 0x8e, 0x0b, 0x3c, 0x3c, 0xc6, 0x44, 0xbe, 0xba, 0xbe, 0xa8, 0xbe,
  0x24, 0x0c, 0x9c, 0x3d, 0xed, 0x1c, 0x41, 0xbe, 0x20, 0x64, 0x2e, 0xbe,
  0x9c, 0x8e, 0xb5, 0xbe, 0x77, 0x73, 0xca, 0xbe, 0xd5, 0x46, 0xd6, 0x3e,
  0x0f, 0x0f, 0xba, 0x3e, 0xc4, 0xe4, 0xda, 0x3d, 0x0e, 0xd6, 0xcc, 0xbe,
  0x49, 0xe9, 0xab, 0xbe, 0x38, 0x68, 0xd9, 0xbe, 0x50, 0xfc, 0xb7, 0x3c,
  0xc5, 0xa8, 0xb6, 0xbe, 0x04, 0x67, 0x9a, 0xbd, 0x48, 0xc8, 0xca, 0xbe,
  0x00, 0x71, 0xac, 0xbc, 0x2a, 0x1e, 0xb3, 0xbe, 0xa1, 0xb2, 0xd2, 0x3e,
  0xe0, 0xc6, 0x73, 0x3d, 0x28, 0x9e, 0x39, 0xbd, 0x96, 0x8d, 0x42, 0x3e,
  0x54, 0xf3, 0xa1, 0x3d, 0x08, 0x14, 0x7f, 0x3d, 0x8e, 0xc0, 0x7e, 0xbe,
  0x35, 0xdd, 0x41, 0xbe, 0x21, 0x74, 0x97, 0x3e, 0xb8, 0xac, 0x71, 0xbe,
  0xfa, 0x52, 0x13, 0x3e, 0xf4, 0xd1, 0x34, 0xbe, 0x10, 0xf9, 0x32, 0xbd,
  0x46, 0x19, 0x2d, 0x3e, 0x87, 0x1f, 0xa3, 0xbe, 0x82, 0x85, 0x05, 0x3e,
  0x0d, 0xc1, 0x2b, 0xbf, 0xa0, 0x96, 0x77, 0x3c, 0xd1, 0x2e, 0x44, 0x3e,
  0x46, 0xe2, 0x06, 0x3e, 0x00, 0x4e, 0x63, 0x3c, 0x88, 0x6f, 0x06, 0x3d,
  0x97, 0xa8, 0xd2, 0xbe, 0xb7, 0xf7, 0xc3, 0x3e, 0x88, 0xb6, 0x6f, 0xbe,
  0xe3, 0x5d, 0xaf, 0xbe, 0x82, 0xe8, 0xa5, 0xbe, 0x8c, 0x71, 0xa7, 0x3d,
  0x8b, 0x0d, 0x27, 0x3e, 0x20, 0x8c, 0xb0, 0x3c, 0x1c, 0x5b, 0x9a, 0x3d,
  0x1d, 0x05, 0x9b, 0x3e, 0xee, 0xe9, 0x0e, 0xbf, 0xb7, 0x2d, 0x9a, 0x3e,
  0x2a, 0x2e, 0x3a, 0x3e, 0xc8, 0x46, 0xcc, 0xbd, 0x70, 0x13, 0xc6, 0xbe,
  0x4e, 0xdd, 0x5c, 0x3e, 0xd5, 0xe0, 0x45, 0xbe, 0x20, 0x25, 0x50, 0x3d,
  0x19, 0x4b, 0x54, 0xbe, 0x85, 0x85, 0x59, 0x3d, 0x20, 0x66, 0x08, 0xbc,
  0x24, 0x9d, 0xcc, 0xbe, 0x88, 0x19, 0xf3, 0xbd, 0x00, 0x40, 0x1f, 0xb9,
  0xf9, 0x3d, 0x9e, 0x3e, 0x11, 0xef, 0x99, 0x3e, 0x8f, 0x81, 0x2c, 0x3d,
  0xbe, 0x79, 0x2b, 0xbe, 0x60, 0x44, 0xb9, 0x3e, 0xd3, 0x9d, 0xdb, 0x3e,
  0xfc, 0x29, 0xd2, 0xbd, 0x20, 0xf5, 0x76, 0xbc, 0xf6, 0xe8, 0x8f, 0xbc,
  0x0a, 0x8d, 0x1e, 0x3e, 0x11, 0x5d, 0xcc, 0xbe, 0x62, 0x8f, 0xa8, 0x3d,
  0xb4, 0xc2, 0x9d, 0x3d, 0x5a, 0x1c, 0x97, 0xbe, 0x24, 0xf7, 0x8d, 0x3e,
  0xa2, 0x03, 0x28, 0x3e, 0x83, 0x75, 0x5d, 0xbe, 0x2a, 0x87, 0x39, 0x3e,
  0xd3, 0xb0, 0x94, 0xbe, 0xe5, 0x4b, 0x98, 0xbe, 0x0d, 0xa9, 0xf6, 0xbe,
  0x0e, 0x08, 0x9c, 0xbe, 0x76, 0xa9, 0x2d, 0x3e, 0x7a, 0x81, 0x02, 0xbe,
  0x09, 0x4f, 0x25, 0xbf, 0xfa, 0xc2, 0x38, 0x3e, 0x9c, 0x55, 0xc1, 0x3d,
  0x5b, 0xeb, 0xcc, 0x3d, 0xe3, 0xb2, 0x9b, 0xbe, 0x4c, 0x00, 0x06, 0xbe,
  0xd3, 0x7c, 0xcb, 0x3e, 0x9b, 0x30, 0x40, 0xbe, 0x64, 0xf4, 0xba, 0x3d,
  0x17, 0x99, 0x68, 0xbe, 0xa8, 0x42, 0x48, 0xbf, 0x7b, 0x61, 0xb8, 0x3e,
  0x55, 0xaa, 0xbc, 0xbe, 0xb0, 0x75, 0x28, 0xbd, 0x00, 0xed, 0x34, 0xbb,
  0x0d, 0xee, 0x97, 0x3e, 0x22, 0x0d, 0x38, 0xbf, 0xad, 0x5a, 0xb3, 0xbe,
  0x80, 0xa4, 0x01, 0xbe, 0x5f, 0x7d, 0xf9, 0x3d, 0x60, 0xc7, 0xb3, 0x3c,
  0x3a, 0x26, 0x25, 0xbe, 0x5c, 0x4d, 0xd2, 0x3e, 0xeb, 0xad, 0xb9, 0x3e,
  0xae, 0xc9, 0xc6, 0xbe, 0x9b, 0x70, 0xa0, 0x3e, 0xca, 0xaf, 0x3f, 0xbf,
  0xd8, 0xcd, 0x53, 0xbd, 0x6e, 0x4a, 0xbb, 0xbe, 0x41, 0x9b, 0x80, 0xbe,
  0x78, 0xc8, 0x1b, 0x3d, 0xdc, 0x5c, 0x9b, 0x3d, 0x37, 0xa2, 0x14, 0xbf,
  0x80, 0xfd, 0xe6, 0xbc, 0xa0, 0xe2, 0x75, 0xbc, 0x4d, 0x47, 0xd2, 0x3d,
  0x81, 0x22, 0xd6, 0x3e, 0xe0, 0x8b, 0xdf, 0xbd, 0x6e, 0x66, 0xd5, 0x3e,
  0x54, 0xbf, 0x9a, 0xbe, 0x8c, 0xb0, 0x4f, 0xbe, 0xfc, 0xa2, 0xae, 0xbd,
  0xfd, 0x9f, 0x0c, 0x3f, 0x15, 0xa1, 0xab, 0xbe, 0x61, 0x87, 0x96, 0xbd,
  0xb4, 0x64, 0x95, 0xbd, 0xe0, 0xc2, 0x8a, 0xbe, 0xd1, 0xca, 0xcb, 0x3e,
  0x05, 0xd6, 0x1c, 0x3f, 0x83, 0xed, 0xb6, 0xbe, 0xbe, 0x91, 0x90, 0xbe,
  0xb0, 0x98, 0x86, 0x3e, 0x5a, 0x60, 0x60, 0x3e, 0x31, 0x34, 0xb2, 0x3e,
  0x58, 0x7a, 0x8d, 0xbd, 0x43, 0x15, 0x55, 0xbe, 0x1c, 0x5a, 0x55, 0xbe,
  0xf3, 0xc8, 0xbe, 0xbe, 0x6d, 0xcd, 0x91, 0x3e, 0x72, 0x47, 0x50, 0x3e,
  0x5b, 0x24, 0xc4, 0xbe, 0x8b, 0xe0, 0xb2, 0x3e, 0xaf, 0x9b, 0x80, 0x3e,
  0x9d, 0x05, 0xb5, 0xbe, 0x60, 0xfa, 0xbe, 0x3c, 0x28, 0xc1, 0xfd, 0xbd,
  0xd0, 0xf1, 0x26, 0xbd, 0xaf, 0xa7, 0xad, 0x3e, 0x7c, 0xa7, 0x31, 0xbe,
  0x2f, 0x33, 0xd6, 0xbe, 0xf5, 0x97, 0x44, 0xbe, 0xaa, 0x1a, 0x1c, 0xbe,
  0xb2, 0xd8, 0x1c, 0xbe, 0x00, 0x00, 0x00, 0x00, 0x46, 0xff, 0xff, 0xff,
  0x04, 0x00, 0x00, 0x00, 0x40, 0x00, 0x00, 0x00, 0x52, 0xad, 0x9f, 0xbe,
  0x88, 0x4a, 0x5a, 0x3e, 0x8a, 0xe4, 0xfd, 0xbe, 0x75, 0x3d, 0x03, 0x3f,
  0x96, 0xcc, 0x5e, 0xbe, 0xe7, 0xc6, 0x8b, 0xbe, 0x80, 0x2d, 0xaf, 0xbe,
  0xd6, 0x93, 0x87, 0x3e, 0x15, 0x9e, 0x11, 0xbf, 0x98, 0xc5, 0xa5, 0xbd,
  0x51, 0x7f, 0xaa, 0x3e, 0x58, 0x8a, 0x2f, 0xbe, 0x44, 0x53, 0xfd, 0xbe,
  0xc9, 0x6e, 0x0d, 0x3f, 0x00, 0x8c, 0xae, 0xba, 0x02, 0x0c, 0x35, 0xbe,
  0x00, 0x00, 0x00, 0x00, 0x96, 0xff, 0xff, 0xff, 0x04, 0x00, 0x00, 0x00,
  0x04, 0x00, 0x00, 0x00, 0xfe, 0xdb, 0xa7, 0xbe, 0xa6, 0xff, 0xff, 0xff,
  0x04, 0x00, 0x00, 0x00, 0x40, 0x00, 0x00, 0x00, 0xd2, 0x64, 0x0d, 0xbc,
  0x57, 0x01, 0x09, 0x3f, 0x00, 0x00, 0x00, 0x00, 0x41, 0xab, 0xba, 0x3c,
  0x41, 0xfc, 0x3f, 0x3e, 0xc3, 0xc5, 0xca, 0x3d, 0x00, 0x00, 0x00, 0x00,
  0x00, 0x00, 0x00, 0x00, 0x99, 0x44, 0x77, 0x3e, 0xd5, 0x81, 0x64, 0x3e,
  0xa6, 0x4d, 0x42, 0xbe, 0x18, 0x0c, 0x1d, 0x3e, 0x17, 0x23, 0x35, 0x3e,
  0x87, 0x1f, 0x4c, 0x3e, 0x35, 0x2a, 0x61, 0xbf, 0x00, 0x00, 0x00, 0x00,
  0x00, 0x00, 0x00, 0x00, 0x00, 0x00, 0x00, 0x00, 0x00, 0x00, 0x00, 0x00,
  0x00, 0x00, 0x06, 0x00, 0x08, 0x00, 0x04, 0x00, 0x06, 0x00, 0x00, 0x00,
  0x04, 0x00, 0x00, 0x00, 0x40, 0x00, 0x00, 0x00, 0x00, 0x00, 0x00, 0x00,
  0x4a, 0x94, 0x0c, 0xbf, 0x00, 0x00, 0x00, 0x00, 0xc0, 0x3b, 0x95, 0xbe,
  0x00, 0x00, 0x00, 0x00, 0x00, 0x00, 0x00, 0x00, 0x00, 0x00, 0x00, 0x00,
  0x98, 0xb3, 0xf7, 0xbe, 0x00, 0x00, 0x00, 0x00, 0x00, 0x00, 0x00, 0x00,
  0xff, 0x4e, 0x7d, 0xbd, 0x00, 0x00, 0x00, 0x00, 0x00, 0x00, 0x00, 0x00,
  0x1b, 0x9f, 0x2f, 0x3e, 0x00, 0x00, 0x00, 0x00, 0x00, 0x00, 0x00, 0x00,
  0x00, 0x00, 0x00, 0x00, 0x00, 0x00, 0x00, 0x00, 0x00, 0x00, 0x00, 0x00,
  0x44, 0xfb, 0xff, 0xff, 0x00, 0x00, 0x00, 0x00, 0x00, 0x00, 0x00, 0x00,
  0x00, 0x00, 0x00, 0x00, 0x54, 0xfb, 0xff, 0xff, 0x0f, 0x00, 0x00, 0x00,
  0x4d, 0x4c, 0x49, 0x52, 0x20, 0x43, 0x6f, 0x6e, 0x76, 0x65, 0x72, 0x74,
  0x65, 0x64, 0x2e, 0x00, 0x01, 0x00, 0x00, 0x00, 0x14, 0x00, 0x00, 0x00,
  0x00, 0x00, 0x0e, 0x00, 0x18, 0x00, 0x04, 0x00, 0x08, 0x00, 0x0c, 0x00,
  0x10, 0x00, 0x14, 0x00, 0x0e, 0x00, 0x00, 0x00, 0x00, 0x01, 0x00, 0x00,
  0xf4, 0x00, 0x00, 0x00, 0xe8, 0x00, 0x00, 0x00, 0x14, 0x00, 0x00, 0x00,
  0x04, 0x00, 0x00, 0x00, 0x04, 0x00, 0x00, 0x00, 0x6d, 0x61, 0x69, 0x6e,
  0x00, 0x00, 0x00, 0x00, 0x03, 0x00, 0x00, 0x00, 0x90, 0x00, 0x00, 0x00,
  0x48, 0x00, 0x00, 0x00, 0x04, 0x00, 0x00, 0x00, 0xce, 0xff, 0xff, 0xff,
  0x00, 0x00, 0x00, 0x08, 0x18, 0x00, 0x00, 0x00, 0x0c, 0x00, 0x00, 0x00,
  0x04, 0x00, 0x00, 0x00, 0xcc, 0xfb, 0xff, 0xff, 0x01, 0x00, 0x00, 0x00,
  0x09, 0x00, 0x00, 0x00, 0x03, 0x00, 0x00, 0x00, 0x08, 0x00, 0x00, 0x00,
  0x06, 0x00, 0x00, 0x00, 0x03, 0x00, 0x00, 0x00, 0x00, 0x00, 0x0e, 0x00,
  0x14, 0x00, 0x00, 0x00, 0x08, 0x00, 0x0c, 0x00, 0x07, 0x00, 0x10, 0x00,
  0x0e, 0x00, 0x00, 0x00, 0x00, 0x00, 0x00, 0x08, 0x1c, 0x00, 0x00, 0x00,
  0x10, 0x00, 0x00, 0x00, 0x04, 0x00, 0x00, 0x00, 0xba, 0xff, 0xff, 0xff,
  0x00, 0x00, 0x00, 0x01, 0x01, 0x00, 0x00, 0x00, 0x08, 0x00, 0x00, 0x00,
  0x03, 0x00, 0x00, 0x00, 0x07, 0x00, 0x00, 0x00, 0x05, 0x00, 0x00, 0x00,
  0x02, 0x00, 0x00, 0x00, 0x00, 0x00, 0x0e, 0x00, 0x16, 0x00, 0x00, 0x00,
  0x08, 0x00, 0x0c, 0x00, 0x07, 0x00, 0x10, 0x00, 0x0e, 0x00, 0x00, 0x00,
  0x00, 0x00, 0x00, 0x08, 0x24, 0x00, 0x00, 0x00, 0x18, 0x00, 0x00, 0x00,
  0x0c, 0x00, 0x00, 0x00, 0x00, 0x00, 0x06, 0x00, 0x08, 0x00, 0x07, 0x00,
  0x06, 0x00, 0x00, 0x00, 0x00, 0x00, 0x00, 0x01, 0x01, 0x00, 0x00, 0x00,
  0x07, 0x00, 0x00, 0x00, 0x03, 0x00, 0x00, 0x00, 0x00, 0x00, 0x00, 0x00,
  0x04, 0x00, 0x00, 0x00, 0x01, 0x00, 0x00, 0x00, 0x01, 0x00, 0x00, 0x00,
  0x09, 0x00, 0x00, 0x00, 0x01, 0x00, 0x00, 0x00, 0x00, 0x00, 0x00, 0x00,
  0x0a, 0x00, 0x00, 0x00, 0x50, 0x03, 0x00, 0x00, 0xdc, 0x02, 0x00, 0x00,
  0x6c, 0x02, 0x00, 0x00, 0x0c, 0x02, 0x00, 0x00, 0xc4, 0x01, 0x00, 0x00,
  0x7c, 0x01, 0x00, 0x00, 0x34, 0x01, 0x00, 0x00, 0xc0, 0x00, 0x00, 0x00,
  0x4c, 0x00, 0x00, 0x00, 0x04, 0x00, 0x00, 0x00, 0xec, 0xfc, 0xff, 0xff,
  0x34, 0x00, 0x00, 0x00, 0x0a, 0x00, 0x00, 0x00, 0x1c, 0x00, 0x00, 0x00,
  0x14, 0x00, 0x00, 0x00, 0x04, 0x00, 0x00, 0x00, 0x02, 0x00, 0x00, 0x00,
  0xff, 0xff, 0xff, 0xff, 0x01, 0x00, 0x00, 0x00, 0xd8, 0xfc, 0xff, 0xff,
  0x08, 0x00, 0x00, 0x00, 0x49, 0x64, 0x65, 0x6e, 0x74, 0x69, 0x74, 0x79,
  0x00, 0x00, 0x00, 0x00, 0x02, 0x00, 0x00, 0x00, 0x01, 0x00, 0x00, 0x00,
  0x01, 0x00, 0x00, 0x00, 0x30, 0xfd, 0xff, 0xff, 0x60, 0x00, 0x00, 0x00,
  0x09, 0x00, 0x00, 0x00, 0x1c, 0x00, 0x00, 0x00, 0x14, 0x00, 0x00, 0x00,
  0x04, 0x00, 0x00, 0x00, 0x02, 0x00, 0x00, 0x00, 0xff, 0xff, 0xff, 0xff,
  0x10, 0x00, 0x00, 0x00, 0x1c, 0xfd, 0xff, 0xff, 0x36, 0x00, 0x00, 0x00,
  0x73, 0x65, 0x71, 0x75, 0x65, 0x6e, 0x74, 0x69, 0x61, 0x6c, 0x5f, 0x31,
  0x2f, 0x64, 0x65, 0x6e, 0x73, 0x65, 0x5f, 0x34, 0x2f, 0x52, 0x65, 0x6c,
  0x75, 0x3b, 0x73, 0x65, 0x71, 0x75, 0x65, 0x6e, 0x74, 0x69, 0x61, 0x6c,
  0x5f, 0x31, 0x2f, 0x64, 0x65, 0x6e, 0x73, 0x65, 0x5f, 0x34, 0x2f, 0x42,
  0x69, 0x61, 0x73, 0x41, 0x64, 0x64, 0x00, 0x00, 0x02, 0x00, 0x00, 0x00,
  0x01, 0x00, 0x00, 0x00, 0x10, 0x00, 0x00, 0x00, 0xa0, 0xfd, 0xff, 0xff,
  0x60, 0x00, 0x00, 0x00, 0x08, 0x00, 0x00, 0x00, 0x1c, 0x00, 0x00, 0x00,
  0x14, 0x00, 0x00, 0x00, 0x04, 0x00, 0x00, 0x00, 0x02, 0x00, 0x00, 0x00,
  0xff, 0xff, 0xff, 0xff, 0x10, 0x00, 0x00, 0x00, 0x8c, 0xfd, 0xff, 0xff,
  0x36, 0x00, 0x00, 0x00, 0x73, 0x65, 0x71, 0x75, 0x65, 0x6e, 0x74, 0x69,
  0x61, 0x6c, 0x5f, 0x31, 0x2f, 0x64, 0x65, 0x6e, 0x73, 0x65, 0x5f, 0x33,
  0x2f, 0x52, 0x65, 0x6c, 0x75, 0x3b, 0x73, 0x65, 0x71, 0x75, 0x65, 0x6e,
  0x74, 0x69, 0x61, 0x6c, 0x5f, 0x31, 0x2f, 0x64, 0x65, 0x6e, 0x73, 0x65,
  0x5f, 0x33, 0x2f, 0x42, 0x69, 0x61, 0x73, 0x41, 0x64, 0x64, 0x00, 0x00,
  0x02, 0x00, 0x00, 0x00, 0x01, 0x00, 0x00, 0x00, 0x10, 0x00, 0x00, 0x00,
  0x7a, 0xfe, 0xff, 0xff, 0x34, 0x00, 0x00, 0x00, 0x07, 0x00, 0x00, 0x00,
  0x0c, 0x00, 0x00, 0x00, 0x04, 0x00, 0x00, 0x00, 0xec, 0xfd, 0xff, 0xff,
  0x1b, 0x00, 0x00, 0x00, 0x73, 0x65, 0x71, 0x75, 0x65, 0x6e, 0x74, 0x69,
  0x61, 0x6c, 0x5f, 0x31, 0x2f, 0x64, 0x65, 0x6e, 0x73, 0x65, 0x5f, 0x35,
  0x2f, 0x4d, 0x61, 0x74, 0x4d, 0x75, 0x6c, 0x00, 0x02, 0x00, 0x00, 0x00,
  0x01, 0x00, 0x00, 0x00, 0x10, 0x00, 0x00, 0x00, 0xbe, 0xfe, 0xff, 0xff,
  0x34, 0x00, 0x00, 0x00, 0x06, 0x00, 0x00, 0x00, 0x0c, 0x00, 0x00, 0x00,
  0x04, 0x00, 0x00, 0x00, 0x30, 0xfe, 0xff, 0xff, 0x1b, 0x00, 0x00, 0x00,
  0x73, 0x65, 0x71, 0x75, 0x65, 0x6e, 0x74, 0x69, 0x61, 0x6c, 0x5f, 0x31,
  0x2f, 0x64, 0x65, 0x6e, 0x73, 0x65, 0x5f, 0x34, 0x2f, 0x4d, 0x61, 0x74,
  0x4d, 0x75, 0x6c, 0x00, 0x02, 0x00, 0x00, 0x00, 0x10, 0x00, 0x00, 0x00,
  0x10, 0x00, 0x00, 0x00, 0x02, 0xff, 0xff, 0xff, 0x34, 0x00, 0x00, 0x00,
  0x05, 0x00, 0x00, 0x00, 0x0c, 0x00, 0x00, 0x00, 0x04, 0x00, 0x00, 0x00,
  0x74, 0xfe, 0xff, 0xff, 0x1b, 0x00, 0x00, 0x00, 0x73, 0x65, 0x71, 0x75,
  0x65, 0x6e, 0x74, 0x69, 0x61, 0x6c, 0x5f, 0x31, 0x2f, 0x64, 0x65, 0x6e,
  0x73, 0x65, 0x5f, 0x33, 0x2f, 0x4d, 0x61, 0x74, 0x4d, 0x75, 0x6c, 0x00,
  0x02, 0x00, 0x00, 0x00, 0x10, 0x00, 0x00, 0x00, 0x01, 0x00, 0x00, 0x00,
  0x46, 0xff, 0xff, 0xff, 0x50, 0x00, 0x00, 0x00, 0x04, 0x00, 0x00, 0x00,
  0x0c, 0x00, 0x00, 0x00, 0x04, 0x00, 0x00, 0x00, 0xb8, 0xfe, 0xff, 0xff,
  0x34, 0x00, 0x00, 0x00, 0x73, 0x65, 0x71, 0x75, 0x65, 0x6e, 0x74, 0x69,
  0x61, 0x6c, 0x5f, 0x31, 0x2f, 0x64, 0x65, 0x6e, 0x73, 0x65, 0x5f, 0x35,
  0x2f, 0x42, 0x69, 0x61, 0x73, 0x41, 0x64, 0x64, 0x2f, 0x52, 0x65, 0x61,
  0x64, 0x56, 0x61, 0x72, 0x69, 0x61, 0x62, 0x6c, 0x65, 0x4f, 0x70, 0x2f,
  0x72, 0x65, 0x73, 0x6f, 0x75, 0x72, 0x63, 0x65, 0x00, 0x00, 0x00, 0x00,
  0x01, 0x00, 0x00, 0x00, 0x01, 0x00, 0x00, 0x00, 0xa2, 0xff, 0xff, 0xff,
  0x50, 0x00, 0x00, 0x00, 0x03, 0x00, 0x00, 0x00, 0x0c, 0x00, 0x00, 0x00,
  0x04, 0x00, 0x00, 0x00, 0x14, 0xff, 0xff, 0xff, 0x34, 0x00, 0x00, 0x00,
  0x73, 0x65, 0x71, 0x75, 0x65, 0x6e, 0x74, 0x69, 0x61, 0x6c, 0x5f, 0x31,
  0x2f, 0x64, 0x65, 0x6e, 0x73, 0x65, 0x5f, 0x34, 0x2f, 0x42, 0x69, 0x61,
  0x73, 0x41, 0x64, 0x64, 0x2f, 0x52, 0x65, 0x61, 0x64, 0x56, 0x61, 0x72,
  0x69, 0x61, 0x62, 0x6c, 0x65, 0x4f, 0x70, 0x2f, 0x72, 0x65, 0x73, 0x6f,
  0x75, 0x72, 0x63, 0x65, 0x00, 0x00, 0x00, 0x00, 0x01, 0x00, 0x00, 0x00,
  0x10, 0x00, 0x00, 0x00, 0x00, 0x00, 0x0e, 0x00, 0x14, 0x00, 0x04, 0x00,
  0x00, 0x00, 0x08, 0x00, 0x0c, 0x00, 0x10, 0x00, 0x0e, 0x00, 0x00, 0x00,
  0x50, 0x00, 0x00, 0x00, 0x02, 0x00, 0x00, 0x00, 0x0c, 0x00, 0x00, 0x00,
  0x04, 0x00, 0x00, 0x00, 0x80, 0xff, 0xff, 0xff, 0x34, 0x00, 0x00, 0x00,
  0x73, 0x65, 0x71, 0x75, 0x65, 0x6e, 0x74, 0x69, 0x61, 0x6c, 0x5f, 0x31,
  0x2f, 0x64, 0x65, 0x6e, 0x73, 0x65, 0x5f, 0x33, 0x2f, 0x42, 0x69, 0x61,
  0x73, 0x41, 0x64, 0x64, 0x2f, 0x52, 0x65, 0x61, 0x64, 0x56, 0x61, 0x72,
  0x69, 0x61, 0x62, 0x6c, 0x65, 0x4f, 0x70, 0x2f, 0x72, 0x65, 0x73, 0x6f,
  0x75, 0x72, 0x63, 0x65, 0x00, 0x00, 0x00, 0x00, 0x01, 0x00, 0x00, 0x00,
  0x10, 0x00, 0x00, 0x00, 0x14, 0x00, 0x18, 0x00, 0x04, 0x00, 0x00, 0x00,
  0x08, 0x00, 0x0c, 0x00, 0x10, 0x00, 0x00, 0x00, 0x00, 0x00, 0x14, 0x00,
  0x14, 0x00, 0x00, 0x00, 0x3c, 0x00, 0x00, 0x00, 0x01, 0x00, 0x00, 0x00,
  0x20, 0x00, 0x00, 0x00, 0x18, 0x00, 0x00, 0x00, 0x04, 0x00, 0x00, 0x00,
  0x02, 0x00, 0x00, 0x00, 0xff, 0xff, 0xff, 0xff, 0x01, 0x00, 0x00, 0x00,
  0x04, 0x00, 0x04, 0x00, 0x04, 0x00, 0x00, 0x00, 0x0d, 0x00, 0x00, 0x00,
  0x64, 0x65, 0x6e, 0x73, 0x65, 0x5f, 0x33, 0x5f, 0x69, 0x6e, 0x70, 0x75,
  0x74, 0x00, 0x00, 0x00, 0x02, 0x00, 0x00, 0x00, 0x01, 0x00, 0x00, 0x00,
  0x01, 0x00, 0x00, 0x00, 0x01, 0x00, 0x00, 0x00, 0x10, 0x00, 0x00, 0x00,
  0x00, 0x00, 0x0a, 0x00, 0x0c, 0x00, 0x07, 0x00, 0x00, 0x00, 0x08, 0x00,
  0x0a, 0x00, 0x00, 0x00, 0x00, 0x00, 0x00, 0x09, 0x03, 0x00, 0x00, 0x00
 
};

#endif //SINE_MODEL_H